41
35
a0
49
08
24
a4
f2
07
06
72
32
74
f1
c8
a1
3a
e8
d6
3b
fa
d8
ce
6b
da
96
24
43
39
5b
be
51
ce
00
40
b4
3a
36
1a
67
ad
0c
4a
14
64
b9
66
74
d9
cc
83
c2
3b
7a
f9
3d
2e
43
01
89
e6
80
04
9d
db
1c
0c
25
02
fb
07
60
ae
7c
ad
e7
c1
58
14
3e
96
62
40
3b
95
17
50
5c
03
34
fa
45
c2
e2
3e
a0
e8
28
a4
a8
64
42
49
54
7e
8d
b7
6c
6c
5f
54
72
da
a1
61
4b
7b
c5
84
f6
e6
4d
94
16
29
46
6b
bc
ae
f1
a7
87
b4
7e
ad
ee
68
9c
e6
2b
77
9c
55
c7
50
99
ca
24
2b
e1
83
df
0c
06
ac
20
44
02
18
4a
57
9a
1d
1b
ff
42
5f
03
1c
e7
c3
9a
ea
3f
6d
7a
c8
3b
2e
e6
69
9a
20
84
a2
51
25
92
0c
f0
60
15
e6
eb
68
4f
63
e8
e8
9d
dc
5e
bf
99
c6
a4
7e
dc
87
d4
7f
f1
16
ec
d1
ca
e9
b3
6e
b0
e7
ae
99
54
f2
03
62
59
cf
9d
c4
95
d1
64
16
f7
23
ce
1e
04
26
ed
cd
f6
48
90
27
42
cf
15
f2
af
e5
6d
cc
de
5c
2a
4d
ba
93
34
be
eb
a5
14
7a
32
89
7e
af
e6
78
0f
1b
ad
e7
c7
70
0a
f4
19
90
b3
80
30
e3
cd
19
99
d8
2a
33
66
76
fe
28
3a
db
b8
18
a3
68
b0
b9
d2
49
6c
92
91
94
b1
53
c3
54
34
a7
3f
d3
38
d6
ae
29
82
75
1b
cc
05
b0
b6
fa
bb
ce
7e
0a
bc
26
6f
fd
d3
95
03
3b
e5
11
4e
e8
c1
fa
fa
b0
87
b6
9b
7a
eb
f5
ac
d7
ce
07
8f
59
49
b8
15
bd
ab
ef
f7
fc
9f
fd
a5
2c
b2
95
ee
d9
1b
2f
ab
6c
dd
85
22
52
50
90
ad
fd
cb
d5
cd
30
c7
e8
e5
f0
29
a2
81
75
93
7e
28
a3
a0
e5
99
3b
52
af
32
d3
7c
7e
c5
04
1b
9b
6e
d4
5e
45
19
bb
a2
01
f6
fa
e5
6a
f9
7c
99
48
4a
2f
42
4f
ac
f4
2d
5a
1c
82
19
7a
88
b8
73
56
52
19
6a
ca
2b
ed
aa
35
49
6e
90
15
2b
ad
0a
df
62
50
fb
bd
ee
95
40
de
47
0a
2a
cd
39
d5
f2
33
49
1d
7f
23
e0
d3
48
84
80
d9
b5
fd
68
00
34
b3
40
c5
01
55
a6
29
63
08
17
39
1c
40
9e
7f
7c
3a
89
9d
bc
41
65
1f
cd
6a
91
26
77
c6
83
0a
c9
e0
97
48
d8
0f
fb
15
8d
57
50
ab
42
7c
38
0e
25
d2
7d
98
31
c7
e6
9f
d3
1d
d7
1f
9b
18
44
38
df
0b
1e
73
e5
24
60
4e
b7
05
39
49
23
45
71
08
b9
e8
66
51
d1
21
96
cd
0e
70
52
a7
0c
48
39
4a
13
be
04
66
86
95
1c
35
38
07
fc
a3
b1
53
b8
1d
d4
da
bc
4e
49
2e
4c
48
7f
2c
33
df
c9
53
13
c4
ed
2d
a1
53
a2
81
f8
5d
4e
ed
0c
c3
cd
f1
fa
bf
10
91
43
13
c3
44
0c
a2
0b
ed
f2
1e
b0
38
a8
38
8b
a4
be
26
ef
81
6a
c7
64
0c
9e
64
90
94
6f
b8
77
f2
16
2e
29
f5
ef
ea
10
8f
f2
d8
8e
09
59
3f
a0
0c
ad
b9
4c
47
51
f3
9c
3e
28
00
a4
74
c4
5c
68
68
e1
2e
e1
b9
4e
d4
10
e3
a7
88
60
e5
e4
07
e7
17
8b
88
a0
35
e9
55
86
07
35
d3
21
35
1c
b5
96
d9
35
57
8f
68
b4
2f
b6
ce
3a
71
78
aa
2c
23
73
c1
b7
00
47
eb
35
00
8a
e2
0e
5f
44
d2
5f
c4
c6
86
b8
ed
42
8e
84
ac
6d
96
e8
a4
25
2d
6c
78
e9
83
fc
e8
35
43
b5
b2
c0
e6
61
69
61
a2
9b
70
d6
4c
fa
70
71
c8
bc
7e
43
a0
fa
f5
82
48
f2
93
fc
b0
e6
80
93
6e
98
4d
fb
f0
96
53
06
95
ce
6f
89
75
b5
b1
df
c9
d3
25
b6
43
81
a4
8f
ab
a7
9b
14
6a
4b
83
ea
8c
df
6a
ea
be
ea
5b
b8
ac
34
b0
ac
fa
b3
ad
3c
0c
1a
1e
17
cb
7c
2b
e2
83
a8
a6
96
ba
ed
45
69
50
eb
a8
8b
9e
8f
c5
5c
9c
dc
16
62
02
c4
01
19
32
8e
26
43
b0
d3
62
d3
72
26
0c
ff
86
53
8a
2e
f6
36
28
80
fa
2f
a8
d2
b5
92
20
59
2c
3b
a0
be
6a
d2
ec
9b
fd
50
ad
ec
ef
13
86
05
5c
bc
da
60
d5
11
48
ff
2e
03
8e
ae
eb
04
c8
a3
a2
48
1b
a7
a0
a2
87
a5
39
a6
c8
b9
7c
0c
66
db
b3
02
1b
4a
51
d8
63
b0
6b
2f
25
e9
8f
46
f3
b6
ea
33
2b
0e
85
e1
a5
ad
d0
1f
06
dc
97
c9
76
b1
9d
44
02
ad
f2
9f
a1
17
87
09
c2
35
3a
da
c6
3d
00
3d
3b
d5
b9
ff
d4
12
42
8f
f2
e3
f0
44
3b
fb
71
06
83
99
b2
41
3d
f8
10
8f
71
60
79
bb
b8
6b
7b
af
4f
bc
78
75
d8
f6
5a
61
9f
bc
e1
a2
08
38
63
70
fa
2d
9d
a4
f1
77
ee
40
b8
9e
5d
9c
fa
d7
21
ec
b3
aa
74
07
6f
6b
c3
a6
67
22
b2
e9
0f
38
a2
bd
73
76
03
dc
85
8c
70
90
f7
7f
c7
3a
ca
46
24
95
3c
dd
f4
88
6a
a9
66
ef
92
12
60
c7
e2
1b
20
e6
a1
4d
8c
d4
86
38
77
f7
a1
74
3f
7b
ec
ee
e2
70
e7
1e
69
0a
f3
24
90
50
da
2f
53
8b
3f
d2
fa
80
cf
04
68
73
45
c6
05
fb
bd
0c
55
cc
c6
c5
24
9d
d5
f7
58
d5
a9
67
51
01
f2
cd
09
50
b0
9a
5f
b5
88
14
a4
13
d9
c6
57
a5
40
19
bb
64
fc
7f
3d
e2
5f
a6
01
43
dc
02
f9
52
3b
03
a5
9d
71
ec
27
84
63
73
2e
dc
6e
26
f7
5c
ad
ea
51
4d
c4
f7
3d
38
42
7d
3a
c1
f1
ee
08
b9
92
c5
4f
57
a7
70
68
2a
36
30
5f
21
d9
76
89
d2
49
3d
bb
15
e8
ff
e4
3d
1a
02
d3
a1
68
97
e5
87
53
0b
8e
a3
82
d8
ab
ff
82
d8
f5
d9
07
f9
89
8c
ba
aa
ad
e5
cc
70
2b
a5
32
23
15
55
75
04
2a
9c
aa
07
d3
07
ae
a0
9a
06
c3
28
2e
7b
c8
e0
9a
ce
58
45
17
88
f5
1f
a4
71
b0
a1
cd
e1
67
6f
f6
af
71
5e
c6
86
e2
ee
b7
6a
fb
04
58
29
9d
8f
f5
8c
f1
14
ec
68
e2
de
e8
1f
05
c3
d0
9f
f3
6d
2d
1e
4b
21
1c
9c
21
ad
16
99
26
f9
cd
d9
fd
6c
8f
e5
24
bd
39
73
1f
a6
b6
a3
46
5f
77
a2
01
f1
66
22
74
56
3e
64
21
9a
b5
69
ac
0e
c4
93
c2
a0
6e
91
19
a3
2e
5f
ab
ca
49
b0
9a
90
13
c5
b6
a4
21
d3
50
d6
fa
d8
46
5a
2d
39
bf
fc
6a
bb
ae
04
45
72
f3
de
13
6e
49
e7
c2
e3
7b
b6
2d
fe
8e
02
70
cc
24
20
d8
2e
e0
56
9c
80
f6
30
85
02
94
93
27
f4
22
08
3b
1a
3f
34
49
41
11
b8
f4
86
52
fd
9a
d7
cd
1d
01
26
42
5f
1d
c4
fa
2c
9c
30
d8
23
c7
98
69
2d
70
6c
ed
2e
38
ff
a0
b3
bc
27
8d
8d
f4
3d
a4
a2
7e
9a
e5
6c
4d
1f
74
41
1e
70
23
30
1f
34
b6
a3
77
64
55
86
f4
ea
ea
39
39
bf
91
6c
5d
8c
c3
5b
af
de
14
36
b3
f1
9d
f0
3b
5d
d0
42
a7
55
e7
27
1a
28
df
7b
85
c9
41
d4
dd
88
b9
39
9b
9c
ea
8b
ee
6c
cf
ed
c9
ce
60
8f
59
c5
04
0d
f7
57
ee
6f
9b
af
82
2e
d4
f9
02
f6
d9
f6
d9
e7
b8
6c
ee
0b
59
9a
7a
80
62
ac
a3
54
c8
23
6b
d7
ee
2c
51
fd
e5
f4
d2
51
36
5f
1b
1e
d2
ef
64
ab
c8
e2
21
bf
17
de
55
75
61
78
72
0d
71
e5
71
ca
d6
f7
a5
34
44
a3
4e
b3
35
59
2b
34
48
cd
6e
83
95
74
35
4d
5d
18
d0
82
ca
3b
4c
27
f0
2e
d0
4e
dd
12
bb
c5
8d
25
75
61
7d
0c
3a
8a
33
26
74
bb
2a
02
46
05
88
3d
46
a2
39
86
0d
2a
13
7d
d2
41
8b
a6
e2
eb
9e
c7
cb
1f
f4
f0
9d
5f
07
be
b6
c9
ad
cc
5e
e2
94
7e
45
58
af
db
c0
1a
93
ab
9c
d2
bf
93
8b
27
d6
b9
6d
d2
b6
dc
e5
37
e5
38
bd
5e
26
48
51
01
64
f7
77
8c
d9
d4
dc
cd
33
9e
64
91
61
87
67
60
8b
2c
4a
cb
98
c8
7e
d9
44
d0
82
82
39
54
e0
42
51
2a
75
d2
21
40
e1
09
ec
82
27
22
06
2c
d1
7a
0c
aa
7b
97
cc
5b
aa
54
16
5a
82
ac
c4
b4
40
0d
ba
5e
62
03
a9
65
3c
b1
92
7c
19
ed
a1
04
0e
3d
e9
5a
0e
69
22
4d
72
bc
97
ca
17
9b
c3
34
40
ff
04
91
63
74
8d
ac
a9
91
ee
6d
70
a9
14
2f
de
c5
bd
df
05
2c
d4
d3
f2
72
f2
00
04
9f
f1
d2
1a
a0
44
63
ec
b2
55
70
20
9e
44
f6
6d
76
e4
04
d2
bd
22
4f
d5
c6
70
70
7c
09
3c
b2
7e
28
d3
2f
b0
3c
42
b9
c7
7f
10
29
45
db
20
8e
22
e8
6a
bf
11
69
3d
39
76
e5
d9
38
e0
e1
19
16
fd
a0
57
85
eb
a4
e9
bc
f9
b8
12
b3
e2
80
08
99
5a
ac
0f
20
84
54
33
dc
86
e7
db
f2
b4
eb
be
08
25
44
4f
8d
a2
59
b8
0a
cb
5b
3a
8b
8d
9b
5a
45
d2
3e
3b
c4
37
3d
02
c8
d3
d0
cd
cc
b8
bf
d1
1e
b1
7e
53
6d
87
9d
f8
58
c7
f9
82
fb
36
fb
af
74
46
5b
2b
73
95
f1
99
67
fa
93
dc
e5
a3
05
aa
29
ad
2d
a8
58
1d
a5
64
fd
cf
d8
1c
5d
26
b6
5b
d4
97
7e
be
d0
9d
11
94
2b
98
b4
e1
4f
d6
f5
eb
5d
04
68
ae
fa
6f
81
f2
4b
b3
e5
50
ac
13
3a
2b
ff
08
29
f1
93
4d
55
5c
a3
cf
ab
a4
9d
e2
06
b3
43
7a
01
e3
b2
7d
65
15
a0
72
c0
c8
a2
77
5f
c1
8c
de
97
a6
b9
24
fa
9b
f1
09
32
d7
3b
50
0d
d2
60
60
db
81
c3
ae
5c
f8
cf
05
bb
ba
42
af
f1
81
ce
95
35
ab
1c
22
62
e4
1f
e8
77
2c
c0
3f
35
f1
0e
c1
8b
56
5c
de
96
16
0d
bc
64
3f
73
ff
40
