@0
f8
3f
6e
75
7d
83
e0
2a
e2
b3
2b
6e
97
df
05
fc
65
5d
c1
d8
94
20
77
18
02
0e
40
fd
f2
2f
1d
0d
23
42
05
fc
aa
7d
d4
3e
d1
a9
62
74
3a
22
a6
ee
f1
ca
35
2f
d7
d4
e2
e8
e9
90
54
e0
6b
52
29
8e
21
db
c0
f6
56
79
d8
bc
bf
b2
88
6e
db
aa
ad
c7
86
50
0e
e1
30
60
7a
6d
7c
6f
05
b4
2c
2e
a0
69
46
0f
49
29
a2
1a
c6
04
8a
cb
dc
df
43
bf
fe
4e
d7
15
31
c1
4b
ba
42
39
f4
86
b4
ec
43
a8
