@0
87
46
79
64
1a
1b
46
20
14
d9
b3
7a
dc
64
ce
6a
b6
bf
23
21
7d
2e
23
6c
25
78
49
ef
d5
fb
e6
fd
9a
24
9f
28
56
8f
30
38
39
51
eb
13
f2
20
4b
44
d9
84
47
33
f1
f7
a1
23
44
e8
16
b1
5e
82
33
af
50
ce
b9
db
2e
c9
40
5f
26
0d
ea
e3
d1
d4
d2
cb
bd
62
c2
5c
c4
2a
22
c6
8a
37
d9
f3
f8
7e
7a
91
ad
c4
70
c9
eb
38
c6
0f
32
a1
44
73
8f
6c
e4
fb
e9
82
1b
95
08
e0
a4
b6
b8
4c
29
b5
64
77
0f
c9
5c
3e
32
44
52
5f
3c
e9
e4
a1
ca
f9
fa
8a
fb
49
69
61
b0
9b
d8
83
96
5c
0e
54
c3
f8
3f
54
2f
98
68
c2
3a
9e
32
bc
fd
bf
5f
cc
89
3b
c2
cd
13
8c
71
8d
77
a2
5c
af
70
b1
c1
49
51
fb
42
74
22
60
bb
a2
eb
3d
b5
b1
35
b6
e4
b8
ac
81
5d
f8
ae
1d
79
9f
5b
18
48
94
8e
0d
74
60
f0
09
24
74
62
9c
09
d8
60
69
17
dd
24
4b
53
4b
74
f0
1c
88
a0
cb
7c
bb
38
04
1e
1b
c6
b6
c6
69
93
64
70
26
3e
c0
87
e7
09
a1
6c
11
86
08
8b
4d
b9
b2
24
65
ae
7f
2f
96
e0
d6
9c
bb
95
bc
1c
e6
d2
cc
f4
ef
ad
34
5e
08
c4
12
ff
a3
07
9d
8b
5d
10
73
58
5f
a2
de
ed
91
5b
54
35
35
cb
db
f3
f5
9e
3b
a2
64
24
ef
f0
03
cf
43
b6
74
80
71
1f
06
15
ea
c3
42
91
43
6a
8c
c3
f6
7c
b2
17
5f
e6
2a
b2
ff
fc
7b
bb
db
7e
37
5d
4c
57
8c
4c
c8
59
c1
9f
15
46
5c
b0
e7
0a
75
58
07
b6
26
ce
04
8c
b1
3d
68
07
b0
11
c7
ab
50
42
8e
75
c2
48
7b
f7
8e
40
9f
