@0
08
41
90
af
30
a6
48
70
75
d0
4c
95
05
4b
48
45
67
87
fc
c2
a5
7f
4e
eb
b6
6c
e4
4e
4f
5e
8d
0f
8b
96
79
56
c2
da
e0
40
11
a8
95
53
ca
6f
d1
18
94
19
15
90
27
16
90
79
ac
d3
44
7c
07
65
8b
57
91
17
99
31
e6
2f
dc
fd
c6
ae
94
b0
cf
1d
21
7c
72
8a
45
42
f8
c8
b5
55
45
f2
84
21
51
46
ef
c3
5f
da
b8
b9
18
d9
34
71
7e
d2
08
fa
07
a4
26
fd
f0
06
d2
c3
9d
6c
36
c2
ff
1b
95
59
64
7c
9b
d8
41
7f
20
1d
0e
d1
37
3c
af
5b
fc
3a
b0
34
fc
a1
3b
1f
96
35
86
45
b1
81
81
db
6c
b7
ee
3f
a2
c6
4d
de
60
b0
0b
75
dd
3f
cd
bd
c4
a7
4a
d2
dd
f2
13
b6
99
ef
83
ee
86
62
e2
40
18
cc
2d
3e
41
b7
e3
2d
84
58
64
e2
d4
8b
06
6f
f7
aa
a1
ee
c7
ff
fa
38
89
e5
66
90
b2
d9
52
c1
78
f5
fa
9c
3e
d6
d3
5c
fd
09
31
e7
17
f9
b4
95
28
1c
db
c0
53
22
11
8b
fe
8e
22
74
99
e8
4c
b2
61
4f
7c
e7
65
b6
e2
d9
03
06
83
a2
45
89
e1
2a
0c
e9
74
cb
67
95
42
4a
4d
9c
9e
14
35
f7
e4
6b
70
70
93
e1
bc
24
19
5b
ff
d0
0d
08
3f
b6
38
59
59
67
75
f2
b2
da
67
6f
9d
b4
ab
4d
4c
08
e1
7b
37
40
b9
86
f9
7a
45
06
08
ab
d3
49
b2
9a
ec
30
dc
d9
14
bb
f7
87
56
13
d0
ca
c4
27
e1
be
2b
7c
e7
1f
94
e1
da
29
e1
e2
58
b8
27
09
db
81
1b
43
45
4e
a0
22
2c
c5
04
09
61
d1
6c
e2
44
70
af
62
be
df
03
1e
52
16
18
e6
36
c2
ee
b5
5c
ee
06
f9
c3
a2
2c
9a
64
00
9d
9d
fd
92
35
af
d6
dc
e2
e0
96
85
51
7c
9e
fa
fb
b7
26
5a
da
90
45
1c
35
8f
6b
2e
45
60
7f
72
35
d3
5f
9f
28
04
98
8f
44
ce
73
e4
47
6f
db
f3
9e
d4
52
68
80
e5
97
4b
a5
4d
82
c8
f3
4c
2d
ea
b4
47
22
90
a7
e7
33
34
95
5a
1c
5e
16
d2
d6
c4
86
80
5f
ee
f1
60
b1
83
5f
d1
13
6c
df
48
e2
14
22
ba
bc
bc
77
9a
44
36
9c
b6
6d
08
9d
27
60
c0
1f
6a
98
c0
13
ba
be
a9
5b
5c
ab
58
36
d6
7c
7f
54
16
6c
6f
fb
ea
e2
c3
9f
0d
87
62
65
d9
ea
14
1a
ca
ab
de
ae
d5
d7
50
d6
ed
57
01
2d
ce
f6
54
28
85
f6
d7
15
9d
b9
f3
8f
5a
82
91
d9
89
61
58
cb
3a
4d
f3
7d
0f
be
13
8c
16
9f
12
9c
af
3d
36
ba
66
0c
91
9c
0b
2d
32
fd
0f
7a
07
a2
f5
51
42
70
d3
53
6a
5e
f1
69
a9
4a
42
e0
e6
c4
93
c9
69
33
34
b0
01
fb
23
1e
89
02
5e
68
07
2e
aa
86
09
59
cf
f6
3e
45
82
f8
d9
f1
bd
e2
b0
e2
f6
95
53
2f
c9
86
6e
ee
9f
91
b3
92
e0
34
a0
40
ef
23
48
15
d7
15
1e
0e
39
f4
f0
bd
41
c8
38
11
34
36
9a
9d
ae
5e
2d
36
fb
1c
12
45
25
d5
cc
b3
cd
f1
1a
5e
58
06
3b
1e
62
65
9c
68
52
80
bf
18
dc
a5
b9
fa
39
65
3b
14
cc
0e
b4
c2
7a
29
f6
34
93
9c
bc
de
7e
68
af
4f
9f
cc
a5
1b
85
6a
fc
f6
ee
c2
4f
c3
cc
d0
35
9c
3e
8f
7e
67
af
91
65
c6
43
08
9e
93
93
de
f1
10
bc
1c
de
92
b6
74
cc
02
bb
ab
28
c3
f6
f4
2c
61
32
85
a1
0b
de
87
3d
16
d7
85
7b
d5
39
3b
5b
7f
71
30
51
b2
a6
b2
f5
26
e9
93
9e
34
f1
55
40
9a
9a
5d
0e
3f
a5
b4
28
db
32
46
6f
d1
d9
56
71
e0
8d
d1
e5
dd
a9
8d
ad
e1
67
03
9f
4c
0a
57
f9
67
bf
a3
ec
ea
ef
8f
d9
52
7a
61
29
db
e2
57
af
43
3a
39
ac
6b
83
e4
0e
36
37
8e
e0
fd
59
26
3c
61
6c
b8
92
eb
2f
a7
5c
01
fc
9d
1f
b0
1f
cb
5c
38
aa
1c
a4
62
74
d3
fa
80
8f
e5
eb
27
ae
47
52
41
2f
41
60
10
36
e1
c7
18
b0
79
33
4b
de
90
ab
7c
9e
49
cf
c6
dd
a3
49
e2
48
35
54
d9
50
0c
f7
3f
84
15
13
09
ca
e9
6e
93
0a
ba
ac
9a
a2
7e
c5
79
6c
47
f3
9b
54
d6
9a
14
68
96
cf
e1
ea
d2
ed
c0
89
40
88
4f
3c
38
2a
cd
24
25
2d
9e
25
68
d3
af
87
8d
79
b5
e0
47
52
b8
06
5f
96
6b
ee
96
81
16
57
a0
2b
30
4d
9f
09
c3
e8
86
d2
64
9b
52
b7
90
d6
6b
a1
85
84
c8
f3
81
90
f8
5e
b7
79
3e
2a
d3
ec
fd
aa
ef
d4
1a
af
a8
ea
c2
a6
66
04
38
fe
c8
d8
fa
59
a6
3e
d8
9e
96
0e
83
74
55
e2
b9
34
2b
04
d4
11
17
79
25
5b
b8
98
a1
a0
1f
57
45
3e
28
ad
cb
61
55
f3
01
54
2c
1f
d8
95
b9
b3
60
be
73
32
0d
bd
20
43
be
d4
65
ad
7f
2f
bf
24
b2
b2
fc
7d
fc
78
2c
96
d5
9f
87
5b
29
1c
fd
35
ca
a4
e0
91
da
37
5f
06
eb
d2
eb
4f
de
d9
fa
6d
c9
10
25
d2
23
10
fb
e3
d5
10
90
c8
c2
8d
5f
9a
33
65
ca
5b
ee
d0
37
d9
a3
06
3e
2b
98
1c
cf
76
9a
6e
55
ac
89
84
96
88
8e
ee
3d
e8
66
96
99
f1
18
e6
db
e2
e5
3e
ee
c5
b3
20
d2
6d
7f
8b
74
a2
86
68
23
37
31
52
c9
bf
b7
6c
26
d5
a3
45
8a
63
80
c5
17
0f
1b
9e
73
73
9f
cc
80
7e
52
92
fc
bb
46
8e
1d
83
8b
fb
45
0e
3a
82
ed
5b
ed
67
99
c2
0a
91
b1
4a
b0
98
7d
7a
cc
b9
7a
00
dd
9e
b7
6d
a4
dd
2c
6e
d0
79
3f
03
18
77
d8
1a
8e
da
fc
b5
47
a7
be
17
b2
01
f1
d8
39
b6
66
b2
25
a1
64
5e
ac
b9
6f
71
03
43
6e
72
42
44
b1
40
2a
85
a3
d8
7c
5c
8f
ab
46
29
94
8d
80
66
d9
67
1a
50
a7
e8
5a
22
7b
5b
48
8f
b4
d7
4f
cf
02
ee
7d
c6
2f
b4
d0
7c
89
1f
93
b1
09
7c
d0
52
00
34
16
25
01
df
ed
b7
d0
01
bd
e7
96
c6
68
ba
fe
da
55
57
d4
94
28
86
24
d7
cb
3c
fe
95
56
d0
27
ed
fc
76
10
0a
76
f2
d2
a1
ff
68
c7
40
d6
8a
b0
9d
91
9c
7f
6d
8c
7c
06
11
0d
43
75
bc
ac
1f
41
5e
e4
f8
ce
a3
14
e9
b3
33
09
c6
f1
37
33
d1
b5
b5
e4
1b
f8
a1
95
2a
41
ed
3a
a7
6b
6f
29
15
2a
89
ac
c1
d4
8a
8d
fe
e8
5d
1e
de
b6
40
84
e4
a2
ef
d1
20
e8
22
f5
06
31
48
22
99
69
e6
b8
6c
cf
47
41
ea
20
2d
f9
7d
6f
4c
82
6e
34
76
2c
9c
62
48
73
79
13
9e
6c
f6
af
1a
d3
66
ec
08
d3
1a
48
83
e0
75
87
15
07
04
a7
47
97
93
e4
72
ee
4a
25
19
79
03
06
d2
4a
4e
7f
f3
f8
50
64
a6
46
9c
80
e1
34
e4
b6
93
71
e1
9b
db
21
95
02
e9
e1
50
a1
db
02
97
ca
87
9e
ee
d9
27
c7
d8
4e
80
81
2a
8d
ee
a8
76
6d
a5
d7
0a
89
53
15
e6
dc
23
b2
15
1b
e6
b9
86
0f
ea
ee
f8
e5
7f
22
4c
76
b5
3e
a6
6e
01
73
9e
8a
2a
74
85
fe
c0
99
4a
b1
f6
9b
19
3d
b4
b1
0d
0f
ce
f8
cf
74
9c
52
61
8f
86
29
5e
18
79
9a
61
22
59
8d
d6
0f
39
fb
a2
ca
23
4a
1e
25
3b
79
c8
eb
55
ee
b5
a9
d7
87
8a
aa
68
a5
df
37
d8
dd
55
a6
6c
b7
81
76
3a
4e
c9
3a
c7
f9
47
27
e0
b3
1e
61
e9
68
cd
03
9b
d3
e4
7b
e4
95
4c
30
74
54
f1
e3
a9
87
cf
7d
ee
7e
09
49
bf
a3
b2
31
d6
e5
5a
1e
51
03
fd
41
50
91
94
e2
3e
4f
24
51
0d
67
48
d9
c1
5c
32
3b
3f
5e
91
3c
bf
2b
9b
ec
37
db
12
7f
d9
58
3c
3e
8f
d5
dd
37
70
64
e2
be
24
88
5b
f1
60
1e
57
0d
a8
e5
67
b9
93
82
f2
fa
90
7f
29
e8
e1
b8
8e
19
0f
b0
c4
3d
66
58
28
9f
1b
aa
6d
f1
d1
eb
15
70
12
0f
b2
01
d2
da
d5
5b
1a
4b
4b
f6
d5
52
d7
29
fc
ef
cc
13
a6
a6
fa
bb
1c
85
c3
4f
4a
9c
bf
9a
c3
6e
4a
15
fa
d1
70
f7
f3
00
55
6b
10
c3
c2
90
c2
ce
84
01
d9
91
31
76
df
f6
26
de
ec
d8
7c
fe
c0
ea
97
2b
fe
4f
6a
07
dd
bb
96
ac
92
12
7f
99
bd
1f
3d
31
fa
ec
03
e1
d3
2d
0e
25
39
92
a7
ed
d8
49
6a
eb
86
6d
4b
41
32
3d
7c
84
01
a7
9d
4f
50
3f
4d
de
1b
e4
ad
1b
8f
59
93
6a
82
4e
e7
73
03
8c
eb
f2
c7
29
fa
06
29
92
45
14
88
6f
8d
59
88
b7
d8
ff
89
4f
63
ce
a7
ed
e1
55
37
3c
a0
f0
e4
b0
c1
0d
31
27
59
07
53
35
f4
a6
68
f0
0d
85
23
e0
37
1b
3f
e4
33
25
09
50
ad
41
e1
65
e4
ee
26
75
60
82
98
19
c0
47
a4
16
c1
25
24
45
73
ca
03
f0
fe
41
3c
99
1a
6d
30
82
cc
73
7f
89
90
48
5f
b7
e8
59
3e
5c
66
44
59
a0
7f
dd
ed
df
b3
59
38
f0
dc
45
35
3d
c8
d1
f7
03
fe
a4
a8
e7
5f
7b
93
24
f0
a6
5b
ab
23
dd
74
f8
35
e5
11
d5
67
b9
8e
b4
01
1c
b4
11
e7
6c
f3
8e
54
a5
2e
6e
67
67
f2
5d
0d
42
ac
4c
4b
b3
b5
3a
34
33
4a
74
79
e9
ee
c8
e9
bb
87
de
79
2f
00
1f
ad
eb
c8
01
fa
b1
19
55
24
36
cf
6b
f4
20
ea
28
c1
c6
4a
10
92
8f
91
50
3b
95
6c
69
17
4c
4e
29
01
79
a8
8a
cc
21
a1
38
9b
9f
44
24
ee
c7
5b
f7
11
2e
82
f3
ec
07
4f
19
70
4f
79
6e
07
88
6e
65
68
5a
ef
3b
5f
d7
d9
6a
35
8b
ee
b8
3f
94
65
a1
26
b1
ae
3b
f5
ae
2a
c2
fc
